node {
  name: "InplaceAdd/x"
  op: "Const"
  attr {
    key: "dtype"
    value {
      type: DT_INT32
    }
  }
  attr {
    key: "op_def"
    value {
      s: "\n\005Const\032\017\n\006output\"\005dtype\"\017\n\005value\022\006tensor\"\r\n\005dtype\022\004type"
    }
  }
  attr {
    key: "output_tensor_desc"
    value {
      list {
        func {
          name: "0"
          attr {
            key: "serialize_datatype"
            value {
              i: 3
            }
          }
          attr {
            key: "serialize_format"
            value {
              i: 1
            }
          }
          attr {
            key: "serialize_shape"
            value {
              list {
                i: 10
                i: 7
                i: 1
                i: 2
              }
            }
          }
        }
      }
    }
  }
  attr {
    key: "value"
    value {
      tensor {
        dtype: DT_INT32
        tensor_shape {
          dim {
            size: 10
          }
          dim {
            size: 7
          }
          dim {
            size: 1
          }
          dim {
            size: 2
          }
        }
        tensor_content: "\036\000\000\000F\000\000\000\031\000\000\000`\000\000\000c\000\000\000\027\000\000\000b\000\000\000W\000\000\000\r\000\000\000\005\000\000\000,\000\000\000U\000\000\000A\000\000\000?\000\000\0006\000\000\000+\000\000\000\031\000\000\000\024\000\000\000<\000\000\000a\000\000\000\'\000\000\000V\000\000\000I\000\000\000\024\000\000\000\'\000\000\0002\000\000\000W\000\000\000A\000\000\000a\000\000\000&\000\000\000\022\000\000\000.\000\000\000a\000\000\000V\000\000\000)\000\000\000\023\000\000\0001\000\000\000\001\000\000\000\006\000\000\000`\000\000\000B\000\000\000B\000\000\000\006\000\000\000>\000\000\000&\000\000\000I\000\000\000Y\000\000\000N\000\000\000\'\000\000\000_\000\000\000O\000\000\000=\000\000\000\007\000\000\000-\000\000\000\"\000\000\000A\000\000\000\'\000\000\0003\000\000\000\003\000\000\000\006\000\000\000\020\000\000\0004\000\000\000\r\000\000\000B\000\000\000]\000\000\000W\000\000\0001\000\000\000[\000\000\000M\000\000\000B\000\000\000U\000\000\000\\\000\000\000F\000\000\000J\000\000\000L\000\000\0001\000\000\000\006\000\000\000K\000\000\000\034\000\000\0000\000\000\000\t\000\000\000\t\000\000\000T\000\000\000)\000\000\000\031\000\000\000 \000\000\000#\000\000\000D\000\000\0007\000\000\000K\000\000\000P\000\000\000\024\000\000\000!\000\000\000@\000\000\000\021\000\000\0001\000\000\000\032\000\000\000\025\000\000\000\003\000\000\000\005\000\000\000\020\000\000\000<\000\000\000,\000\000\000\'\000\000\000R\000\000\000V\000\000\000W\000\000\000\022\000\000\0003\000\000\000F\000\000\000\025\000\000\000H\000\000\000C\000\000\000\027\000\000\000:\000\000\000=\000\000\000[\000\000\0000\000\000\0009\000\000\000`\000\000\000O\000\000\000V\000\000\000\004\000\000\000\025\000\000\000\014\000\000\000=\000\000\000\n\000\000\000Q\000\000\000\t\000\000\000\026\000\000\000b\000\000\000X\000\000\000c\000\000\000Z\000\000\000V\000\000\000\014\000\000\000Y\000\000\000>\000\000\000<\000\000\000\016\000\000\000"
      }
    }
  }
}
node {
  name: "InplaceAdd/i"
  op: "Const"
  attr {
    key: "dtype"
    value {
      type: DT_INT32
    }
  }
  attr {
    key: "op_def"
    value {
      s: "\n\005Const\032\017\n\006output\"\005dtype\"\017\n\005value\022\006tensor\"\r\n\005dtype\022\004type"
    }
  }
  attr {
    key: "output_tensor_desc"
    value {
      list {
        func {
          name: "0"
          attr {
            key: "serialize_datatype"
            value {
              i: 3
            }
          }
          attr {
            key: "serialize_format"
            value {
              i: 1
            }
          }
          attr {
            key: "serialize_shape"
            value {
              list {
                i: 3
              }
            }
          }
        }
      }
    }
  }
  attr {
    key: "value"
    value {
      tensor {
        dtype: DT_INT32
        tensor_shape {
          dim {
            size: 3
          }
        }
        tensor_content: "\000\000\000\000\001\000\000\000\002\000\000\000"
      }
    }
  }
}
node {
  name: "InplaceAdd/v"
  op: "Const"
  attr {
    key: "dtype"
    value {
      type: DT_INT32
    }
  }
  attr {
    key: "op_def"
    value {
      s: "\n\005Const\032\017\n\006output\"\005dtype\"\017\n\005value\022\006tensor\"\r\n\005dtype\022\004type"
    }
  }
  attr {
    key: "output_tensor_desc"
    value {
      list {
        func {
          name: "0"
          attr {
            key: "serialize_datatype"
            value {
              i: 3
            }
          }
          attr {
            key: "serialize_format"
            value {
              i: 1
            }
          }
          attr {
            key: "serialize_shape"
            value {
              list {
                i: 3
                i: 7
                i: 1
                i: 2
              }
            }
          }
        }
      }
    }
  }
  attr {
    key: "value"
    value {
      tensor {
        dtype: DT_INT32
        tensor_shape {
          dim {
            size: 3
          }
          dim {
            size: 7
          }
          dim {
            size: 1
          }
          dim {
            size: 2
          }
        }
        tensor_content: "\023\000\000\000:\000\000\000-\000\000\000\033\000\000\000L\000\000\000P\000\000\000\010\000\000\000\024\000\000\000\r\000\000\000\034\000\000\000N\000\000\0004\000\000\000!\000\000\000\036\000\000\000]\000\000\000J\000\000\000I\000\000\000\035\000\000\000\033\000\000\000\013\000\000\000B\000\000\000\027\000\000\000O\000\000\000b\000\000\0009\000\000\000[\000\000\000/\000\000\000X\000\000\000\"\000\000\000O\000\000\0000\000\000\000P\000\000\000\006\000\000\000V\000\000\000T\000\000\000M\000\000\000:\000\000\000\020\000\000\000H\000\000\000[\000\000\000Q\000\000\000;\000\000\000"
      }
    }
  }
}
node {
  name: "InplaceAdd"
  op: "InplaceAdd"
  input: "InplaceAdd/x"
  input: "InplaceAdd/i"
  input: "InplaceAdd/v"
  attr {
    key: "T"
    value {
      type: DT_INT32
    }
  }
  attr {
    key: "input_tensor_desc"
    value {
      list {
        func {
          name: "0"
          attr {
            key: "serialize_datatype"
            value {
              i: 3
            }
          }
          attr {
            key: "serialize_format"
            value {
              i: 1
            }
          }
          attr {
            key: "serialize_shape"
            value {
              list {
                i: 10
                i: 7
                i: 1
                i: 2
              }
            }
          }
        }
        func {
          name: "0"
          attr {
            key: "serialize_datatype"
            value {
              i: 3
            }
          }
          attr {
            key: "serialize_format"
            value {
              i: 1
            }
          }
          attr {
            key: "serialize_shape"
            value {
              list {
                i: 3
              }
            }
          }
        }
        func {
          name: "0"
          attr {
            key: "serialize_datatype"
            value {
              i: 3
            }
          }
          attr {
            key: "serialize_format"
            value {
              i: 1
            }
          }
          attr {
            key: "serialize_shape"
            value {
              list {
                i: 3
                i: 7
                i: 1
                i: 2
              }
            }
          }
        }
      }
    }
  }
  attr {
    key: "op_def"
    value {
      s: "\n\nInplaceAdd\022\006\n\001x\"\001T\022\005\n\001i\030\003\022\006\n\001v\"\001T\032\006\n\001y\"\001T\"\t\n\001T\022\004type"
    }
  }
  attr {
    key: "output_tensor_desc"
    value {
      list {
        func {
          name: "0"
          attr {
            key: "serialize_datatype"
            value {
              i: 3
            }
          }
          attr {
            key: "serialize_format"
            value {
              i: 1
            }
          }
          attr {
            key: "serialize_shape"
            value {
              list {
                i: 10
                i: 7
                i: 1
                i: 2
              }
            }
          }
        }
      }
    }
  }
}
node {
  name: "InplaceAdd_0_retval_RetVal"
  op: "_Retval"
  input: "InplaceAdd"
  attr {
    key: "T"
    value {
      type: DT_INT32
    }
  }
  attr {
    key: "index"
    value {
      i: 0
    }
  }
  attr {
    key: "input_tensor_desc"
    value {
      list {
        func {
          name: "0"
          attr {
            key: "serialize_datatype"
            value {
              i: 3
            }
          }
          attr {
            key: "serialize_format"
            value {
              i: 1
            }
          }
          attr {
            key: "serialize_shape"
            value {
              list {
                i: 10
                i: 7
                i: 1
                i: 2
              }
            }
          }
        }
      }
    }
  }
  attr {
    key: "op_def"
    value {
      s: "\n\007_Retval\022\035\n\005input\022\021The return value.\"\001T\"\t\n\001T\022\004type\"O\n\005index\022\003int\"?This return value is the index-th return value of the function.(\001*;A graph node which represents a return value of a function.\210\001\001"
    }
  }
}
library {
}
versions {
  producer: 134
}
